[[1]]
[[1]][[1]]
                 [,1]          [,2]           [,3]          [,4]           [,5]           [,6]
 [1,]  -1.81695726755 -1.3124777763  0.68913040206  0.8209856847 -0.10931889067 -1.30972335659
 [2,]  -0.38961927870  2.0717916403  0.07181703697 -0.9168366215  0.81251344298 -0.33324613482
 [3,]   3.17978723379  1.9816990165  0.05945270984  0.1800972903 -0.26530392874  1.27193813737
 [4,]  -8.46100277604 -1.0285043583  0.55022138571 -1.0226242347  0.06824194457  0.38185677004
 [5,]   0.51575940551 -0.2300576400  0.11064413920 -1.0249181018  0.91224014981 -0.62050532676
 [6,]   0.78629718586  1.4190442386  1.62112067348  0.2557058133 -0.49355593835  0.90011365930
 [7,]  -0.02771108039 -1.6402119580  1.10070716438  1.6341408842  0.60519022919  1.37444502251
 [8,]  -3.65559911605  1.2753133134 -1.99189915771 -1.1904332421 -1.20311693686 -1.07809706957
 [9,]  -2.58208717510 -2.3140606908 -0.32828178467  0.1533068172  1.67016632523 -0.36559062228
[10,]  -6.25287382455  1.2655991917 -0.56530828446  1.0059539278  0.78598038909  1.32318772982
[11,] -67.25332167975 -0.4384238695 -3.60263556311 -0.6130656656 -2.60604266493 -0.08117654986
                 [,7]           [,8]
 [1,]  0.127538935120  0.97517916913
 [2,] -0.543088102400 -0.09896735239
 [3,]  0.570361866789 -0.82012745228
 [4,] -0.156659194043 -0.03227209113
 [5,] -0.124037802949  1.97343796140
 [6,] -1.150041596767  0.48602215666
 [7,]  2.569368679092 -1.65657477670
 [8,]  0.148924207619  0.56458540438
 [9,] -1.426451588345  0.35485381979
[10,] -0.001471465046  1.87644272920
[11,]  0.214614362407 -0.57352758996

[[1]][[2]]
               [,1]
 [1,] -0.2141964480
 [2,]  2.5713215339
 [3,] -0.4934455312
 [4,]  0.2126467127
 [5,] -1.5574246782
 [6,]  0.1357809972
 [7,]  1.0417735698
 [8,]  0.4433675417
 [9,]  0.9777793654

