[[1]]
[[1]][[1]]
                [,1]           [,2]           [,3]           [,4]          [,5]           [,6]
 [1,]  0.17084332400 -0.55582181134 -0.55426636755 -0.29203505797 -0.4361502232 -1.84806766559
 [2,]  0.27239064410 -0.08146217958 -2.87366604185  0.24087294955  0.6273034688 -0.02636798003
 [3,] -1.03281995742 -1.11428911922 -1.16712435578  0.01497833826  0.6553452281  2.27462371161
 [4,]  0.47532083079 -0.15642528144 -0.66618050373  2.24302755556 -1.3953682372 -0.09389074617
 [5,]  0.57491575997  2.53258593452 -1.62841731100  0.05662823146  0.2028148433 -1.83392376238
 [6,] -0.32042362107 -1.58138562896 -0.08122810470  0.88448854779 -1.2350753939 -0.45241224563
 [7,]  2.00785295977  0.82505110988  0.04094700381 -2.08753245596 -0.5095985836  1.40739446804
 [8,] -2.00144729824  0.97163142847 -0.88131525752 -0.00187895251  1.4701622394  0.80580918540
 [9,]  1.07769443232  0.84592857870 -2.32762922266 -0.46011514729  1.2419622178  0.21170881081
[10,] -0.03977044662  0.80946568913  0.50249180007  1.27464663441  1.0649490100 -1.77337266536
[11,]  0.62462635652  1.05188169161  2.15971403918 -0.08727030254 -0.7110025369 -1.97663131759
                 [,7]           [,8]
 [1,]  0.001256357731  1.18878566012
 [2,]  0.237258227251  0.15055783747
 [3,] -1.102978700892 -0.05467052894
 [4,]  0.775896934519  4.32733522276
 [5,] -0.697563973176 -2.88921321607
 [6,]  0.548353680284  0.15912918738
 [7,] -1.709738029780  0.68590244592
 [8,] -1.338107081221  1.18668492220
 [9,] -0.858640864298  0.66498408721
[10,]  1.042104072214  0.61866667757
[11,]  0.950892327666  0.82028061733

[[1]][[2]]
               [,1]
 [1,]  1.4234006677
 [2,]  0.3985209556
 [3,]  0.8862844596
 [4,] -0.4812370892
 [5,]  1.3137462555
 [6,] -0.4979119275
 [7,]  0.6569104809
 [8,] -0.7630272092
 [9,] -2.4086320311