9 10

 -0.026255640376  1.63056782550  1.43718946966 -1.1515398727  0.20683646855 -0.5230217040  -1.92338816880  0.9158982859 -0.55763311073
 -0.269250831275 -0.16525350741 -0.68875394082  0.9872410919  0.18386575940  1.8667961024   0.01292308997  1.1950867282  2.85227978971
  0.254064979734  0.77883891851  0.57327431402  0.2525611694  0.07050081070  0.6257303455   0.47455902794  0.5602619269  0.30264700549
 -0.256136235207  0.32349169956 -1.35933140683 -0.7190050144  0.70528101766 -1.1049199845   0.10003130746  0.9072356076 -0.05243519438
 -0.669335060115  0.90699902699 -1.27974873256  0.5070854696 -0.55958486831  0.4687910345   0.03221776397 -1.9923544608 -1.00163844347
 -0.032809317511 -1.49694397247  0.49502363909  1.2525952380  1.04987225934 -0.2701266834  -0.64157064144 -0.1923786495 -0.47595241792
 -0.005148494811 -0.01273586852 -0.89728427115 -0.8157574908 -0.85082067974 -0.9251596964  -1.80511718553 -1.2149652963 -0.90733440753
  0.056808958365 -0.28959926669  0.88717108397 -0.8257002909  0.78843671866  0.7869811190   0.76002212871  0.4827453787  0.70130685703
  0.670177784145 -0.48754125005 -0.05251192913 -0.2343852508 -0.06129436094 -0.0472162889  -0.01791908702  0.1346848042 -0.60950791548
 -0.028455811505 -0.17142415621  0.44861154827 -2.0675744770  0.51555174388 -0.4049570867  -1.52162253311  0.2315196326  0.69178979701
 -0.092544373062  1.27382885701 -0.52226079246  1.9264814727 -0.75537764647  0.9453626709   0.11940467870 -3.7568719910 -1.29862706591

 -0.4947523765
 -1.2382502250
  1.1256280671
 -0.8509853935
 -0.3932955592
  1.3694230292
  0.9809311571
 -0.9352143159
  0.4401319434
 -1.1592851734
