[[1]]
[[1]][[1]]
                [,1]           [,2]           [,3]           [,4]           [,5]            [,6]
 [1,]  1.60349078344 -1.73897280971 -1.27721323696 -1.29266503991  2.67139703075 -0.165623820847
 [2,]  0.08553263560  1.18074015464 -0.05529292738  0.20672565840 -0.36751899214  0.005263474907
 [3,]  1.60285534104 -0.03216798896 -2.26132680174  0.54836933829  1.62252616187  0.321746334823
 [4,]  4.73324123482  0.36195186426 -4.83712958213 -0.28086484669  4.52563313044  0.318497283051
 [5,] -0.08187110677 -1.63164705326 -5.15245834284  0.05357794496  6.40629960655  0.616315022868
 [6,]  4.63545081816 -0.20977766355  0.23098019772  0.29143812856 -0.86067766153  0.333737643416
 [7,]  4.45672376487 -4.22826765812 -0.05842939237  0.01167689739 -1.34864158464  1.510822278963
 [8,] -1.10929698271  3.59660364735  0.06439352835 -1.27518696494 -0.93036490323  0.986496350377
 [9,]  1.93906200317  0.35038980888 -0.06111188505  0.36951401743 -1.27708613728  0.162733872625
[10,] -2.75600189541 -2.60466259673  0.67384956800 -1.13147093191 -0.15595107886 -0.857957537700
[11,]  0.24857339599  0.93467759880  1.01935135914  0.25022985420 -0.25856207909 -0.705526618144
[12,] -0.78483282503 -1.93552337710 -0.82481840143  0.13799485478 -0.01927043863 -0.209171415189
                [,7]          [,8]           [,9]
 [1,]  0.56045036472  1.0756511296  2.17657551113
 [2,] -0.19517618915  0.2037236850 -0.76815121051
 [3,] -0.03579032591 -0.2147837492  0.87669532320
 [4,]  0.74078827486 -0.5359541364  0.56604169672
 [5,] -0.04067296936  0.3446102882  0.37987659392
 [6,] -0.10690233650  0.1433038802  0.54882735439
 [7,] -0.81051673132 -1.1568474622 -0.04425072587
 [8,] -0.73112088400 -0.2731459074  1.12258583948
 [9,] -0.29695648868  0.4192666724  0.29892606481
[10,]  0.11177319772 -0.4368657172  0.01490735396
[11,] -0.21283317434  0.1260811314  0.78323631612
[12,]  0.12751812325 -0.9273333713  0.04367645904

[[1]][[2]]
               [,1]
 [1,]  0.3125757681
 [2,] -0.8706968719
 [3,]  0.8171423833
 [4,] -0.3159938369
 [5,] -1.2326309197
 [6,] -0.2486407300
 [7,]  0.6377079187
 [8,] -0.8191001847
 [9,] -0.4301642024
[10,]  1.5704457568